int32_t weight[] = {
0x00b923f9,
0x00580943,
0x0034c3ca,
0x00e66143,
0x00ed415c,
0x00939629,
0x0047bf43,
0x00bf59ec,
0x00c5beff,
0x00a70cc6,
0x000fcafe,
0x0038bb43,
0x0054df03,
0x00c8c693,
0x006449e0,
0x0043bbd3,
0x0028b713,
0x00703ce1,
0x00bd39d5,
0x00e6d2db,
0x00a837cb,
0x00d913b3,
0x00a8050b,
0x00311d55,
0x00a33028,
0x00dac146,
0x00d929b7,
0x00ef442d,
0x00223fbe,
0x0002f29b,
0x00eb961b,
0x00d70246,
0x001e25d7,
0x00dfbf10,
0x00bfb8f1,
0x00ff44a4,
0x00813940,
0x00e93426,
0x00d145e9,
0x0007c53b,
0x00b94d2c,
0x00ae0c36,
0x006c4ee9,
0x000f425d,
0x0053f539,
0x00aea230,
0x005239dd,
0x00a3d0bf,
0x00c8e9db,
0x00f2f7c7,
0x0021d108,
0x00c2d217,
0x00c717e9,
0x001dfcf0,
0x001ecec8,
0x00c724fc,
0x00f90ad6,
0x0028cd13,
0x00ce11f9,
0x000ce4ff,
0x00f0ec0b,
0x00f9ecf3,
0x00f8f7f4,
0x0013ffc3,
0x000716dd,
0x00e7f519,
0x00fcf028,
0x00d40800,
0x0027d1de,
0x00ea1bfd,
0x001c26f2,
0x00dcd0f5,
0x00cd26f0,
0x00dd1325,
0x00e7e9f8,
0x00c721ce,
0x00eadfc8,
0x00cc19d3,
0x00fee4f4,
0x000ce8ec,
0x00da17dc,
0x00d9d006,
0x00d0dbdb,
0x00e72922,
0x00fad3d9,
0x0002eec1,
0x00f7bc14,
0x00fde80f,
0x00e7dae1,
0x00ffe4fc,
0x001c0bde,
0x00f41407,
0x00ee26c8,
0x0020ee21,
0x00f510c5,
0x002605f8,
0x0025d6fb,
0x00f8cc18,
0x00e40b05,
0x00fde1ef,
0x00040d16,
0x00bc06ed,
0x002c2335,
0x00f3140d,
0x002ad9e7,
0x00e924e9,
0x00372fe8,
0x000e2ce7,
0x00fde5e9,
0x002d16eb,
0x001b1fd7,
0x0008f1e6,
0x00e60518,
0x00f0e328,
0x0030db08,
0x001e16ef,
0x001732fd,
0x00060109,
0x00e5ddef,
0x0004f9ee,
0x003133d1,
0x00e0dd18,
0x00f0def2,
0x001e23fa,
0x00b9bfbc,
0x00f7c0e3,
0x00de000b,
0x0008ee15,
0x00de3c15,
0x00122d10,
0x00fd19f6,
0x00df0e2d,
0x00d403e4,
0x00ef2018,
0x000fda1b,
0x00ebe90c,
0x00eee811,
0x002cee02,
0x0002e2f1,
0x000cef15,
0x00d615db,
0x0030f1e4,
0x00dce20a,
0x0026020d,
0x00f8aad3,
0x00560a6f,
0x003a00f2,
0x00f916ea,
0x00d4d801,
0x00df151e,
0x0026dcb1,
0x0014f9e5,
0x00426444,
0x00173904,
0x0011fce7,
0x00ff0cb1,
0x003b2323,
0x00cfc8f8,
0x003de41b,
0x00102dee,
0x0044efdc,
0x0036dff7,
0x00f2ef2c,
0x002806c7,
0x0043e3e6,
0x002a3eff,
0x004437fb,
0x0018fad2,
0x0029f8d5,
0x00380cd3,
0x00060ed5,
0x00282016,
0x00efd936,
0x00f8556e,
0x00fb1536,
0x00124c14,
0x001836b2,
0x000e0d39,
0x0001ebca,
0x002306fc,
0x00ecc735,
0x00f90610,
0x0049fe0d,
0x002be415,
0x00fe1f30,
0x004d055b,
0x001c25c5,
0x001b1c07,
0x00ee35fd,
0x0002f510,
0x00301713,
0x0019021e,
0x0003060c,
0x00e8fb23,
0x0028dc02,
0x0019d8f3,
0x002d0ceb,
0x0032f8f4,
0x001a1ae3,
0x002f2ce9,
0x001437d0,
0x00f12bf3,
0x000239ed,
0x001d2af0,
0x001df22c,
0x00f6ccfe,
0x00f51f3a,
0x000e29d7,
0x0039d503,
0x00ec2031,
0x00d810ed,
0x002f39ec,
0x00e6d5e3,
0x0004fff7,
0x00fc04f3,
0x00311027,
0x00273310,
0x001d0602,
0x00e4ffc0,
0x0023f2c9,
0x0013fad8,
0x00de03dd,
0x00e90909,
0x00ecefe8,
0x00d10400,
0x00ddf4f8,
0x00ff0aee,
0x00ddeacc,
0x00121ce9,
0x000b2405,
0x00e901da,
0x00f322e7,
0x00fa4220,
0x000ff71b,
0x00d9cbd7,
0x00d00ee6,
0x00f81109,
0x00ff2712,
0x000115f9,
0x0006fd0f,
0x001529fb,
0x00dcd5d1,
0x00f2f224,
0x001c0126,
0x00caf719,
0x00cad9f8,
0x00e3e1fe,
0x00ff0d2c,
0x000e14e7,
0x00edff16,
0x00f7123c,
0x00da3611,
0x00ebe0fa,
0x000b47f5,
0x002a2e09,
0x0037e5dc,
0x003a08da,
0x001ee1fe,
0x0039de2f,
0x002af608,
0x002b171a,
0x00c9f4de,
0x00320139,
0x00371e37,
0x0004d719,
0x00280cec,
0x00d61e1d,
0x002a1316,
0x001000dc,
0x00e1d80e,
0x000a0633,
0x00eefe23,
0x00da36fb,
0x001f03ff,
0x00302018,
0x0017e82b,
0x0012e907,
0x0007db0c,
0x00ff19f4,
0x00013620,
0x0022e30d,
0x00ec4622,
0x00e92dfb,
0x00f6db09,
0x002707ef,
0x00302405,
0x00f13310,
0x0025ebd8,
0x00310b17,
0x0038cccc,
0x00ee0ae6,
0x001915e7,
0x00ecd5d9,
0x00f3d906,
0x00fdd91e,
0x00fa2ee9,
0x000e0ae2,
0x00e10208,
0x0000e834,
0x00f4e522,
0x003cfefd,
0x00111fd1,
0x00333afe,
0x0021e8db,
0x003e2f1f,
0x000e262c,
0x000e1a0c,
0x00f006fa,
0x000c0ef6,
0x0001d719,
0x00252812,
0x002a0a39,
0x002b2a12,
0x00f33314,
0x00002526,
0x001c3efe,
0x00f725ec,
0x0014f605,
0x0014e5d6,
0x00152104,
0x0026f7d8,
0x00261701,
0x00f8dc31,
0x00f6d611,
0x000aeec1,
0x0004dcca,
0x00ffdb00,
0x00f308eb,
0x001bf4dd,
0x00ebd7e9,
0x0040312b,
0x00f012d4,
0x00e4f5cf,
0x00ec07dd,
0x00f3f628,
0x00fe1d09,
0x00f50344,
0x0014f410,
0x0011f4e6,
0x002f4ac7,
0x00fd124a,
0x00ecd90b,
0x00de0ae7,
0x00173230,
0x00394523,
0x000f08dd,
0x00d3db10,
0x00e21be6,
0x00f1f254,
0x002d0630,
0x000fff05,
0x0042042d,
0x002613fa,
0x001208f6,
0x000ceaca,
0x00e215f1,
0x000d0c28,
0x002a1aff,
0x00ee34f4,
0x003340f8,
0x00e804ac,
0x000be3f1,
0x002209cd,
0x00280d06,
0x0022284a,
0x00193342,
0x000a0f42,
0x00e4fdb3,
0x00dc4eb9,
0x00c0f7f5,
0x001b1f03,
0x00e62805,
0x00edc303,
0x00100cf4,
0x001d0518,
0x00d942d4,
0x002b2607,
0x00191c12,
0x00453732,
0x0022f037,
0x00e9f91d,
0x00f5d3ec,
0x0011e5e5,
0x002f33da,
0x002a17f6,
0x00f711f8,
0x00c90ce5,
0x00f43d19,
0x00f40dff,
0x00f8bcde,
0x001b312f,
0x00de3b2e,
0x00d932fe,
0x0033ef17,
0x00e037f4,
0x00ff0325,
0x0027db24,
0x0038051c,
0x002931e4,
0x0038cbf7,
0x00fcf005,
0x00340609,
0x0020dfd5,
0x0020122b,
0x002b30dc,
0x00fa13ee,
0x00f9da37,
0x00f6ec1d,
0x00dc07f7,
0x00e50d21,
0x0013321e,
0x00211ae4,
0x000cd0e6,
0x0002d4da,
0x00282e34,
0x0008d5e5,
0x00f31ff6,
0x000d0f02,
0x000e3a21,
0x00e1e028,
0x00f3d7d3,
0x000bdfec,
0x00d2064c,
0x00f724e5,
0x0011e925,
0x00200b1a,
0x002a0b21,
0x00ecdaf2,
0x0009c402,
0x00e5e822,
0x00fa19e9,
0x00e60913,
0x00d9e317,
0x00033241,
0x001e1de8,
0x0006cbb8,
0x002f2c32,
0x001e171d,
0x00deecf7,
0x00032812,
0x00f83c3a,
0x00fee1f5,
0x00fcda0e,
0x000ec5f0,
0x0007321a,
0x00adf512,
0x00031537,
0x001c133e,
0x00d2dcfe,
0x00cd203e,
0x00ea0517,
0x0006df10,
0x00f0feef,
0x002a160d,
0x00351dc7,
0x00b608b2,
0x00f2def0,
0x0011e301,
0x00072812,
0x00d0394d,
0x001e401b,
0x00424d0c,
0x00371e1c,
0x0014cac7,
0x0023c3d6,
0x00fb0923,
0x00f2bd01,
0x000205d8,
0x0049fb01,
0x00390b03,
0x002812e6,
0x00252ab3,
0x001914ed,
0x00401524,
0x0000df32,
0x001c1d05,
0x001d3344,
0x000a0ec9,
0x00f11f03,
0x00f9cd01,
0x001e0b06,
0x0009fb00,
0x0026dee4,
0x000bf836,
0x00d1041d,
0x00da0202,
0x0005d20e,
0x001918fe,
0x0011e31e,
0x003bdfea,
0x0011282a,
0x000fede3,
0x00e51759,
0x00e51436,
0x003a0c49,
0x001af40a,
0x0014d6d6,
0x00f20e0c,
0x002d052a,
0x00111bef,
0x00170e07,
0x002a2e1b,
0x00e9f207,
0x002c170b,
0x00ec3212,
0x0007f6f8,
0x00f739df,
0x003df112,
0x00e80a0f,
0x00ac0234,
0x0020e7fe,
0x003d07f6,
0x00232ada,
0x000d0005,
0x00e40c11,
0x00162adb,
0x002de4f6,
0x00fcd90f,
0x00f50b1d,
0x00e2ebdb,
0x00ea252c,
0x001c2ce0,
0x00071fd6,
0x00c5cc1d,
0x00fae117,
0x00f9f1e6,
0x00ee29df,
0x00f809e9,
0x0035f5d7,
0x0039dcfc,
0x00191fd0,
0x00fdd404,
0x002de21e,
0x00014850,
0x0017f7dd,
0x00072ce6,
0x00381cec,
0x002becf6,
0x0020e914,
0x00d20509,
0x00c9b1fa,
0x0022b5e6,
0x0031e8de,
0x00300fa6,
0x0021e20a,
0x0030f7ec,
0x00fee6d1,
0x001fddd7,
0x00181d0d,
0x00d1dbc0,
0x0006f1c0,
0x00cdafac,
0x00280dc4,
0x00210e05,
0x00f204fd,
0x001d0423,
0x0001eaf5,
0x00153447,
0x000bde18,
0x00fed405,
0x00b608e6,
0x0007281d,
0x00f4f220,
0x00ffdaf2,
0x00260810,
0x0010dcdb,
0x0009dbd1,
0x0035fecb,
0x002bf027,
0x002a3e17,
0x0010efab,
0x00f6ec9d,
0x00d24f03,
0x00070deb,
0x001e08fc,
0x001c391e,
0x00480202,
0x00e804ed,
0x0020ea2d,
0x00043f79,
0x00fbede2,
0x00f2f8f9,
0x00372a5d,
0x00151cf0,
0x002edaf9,
0x0036e515,
0x0039d2df,
0x00f0e613,
0x0045f00e,
0x001c1342,
0x0029cfd5,
0x0000dae9,
0x002829fd,
0x00152ada,
0x0008e328,
0x00e5faf5,
0x0007de14,
0x0038f621,
0x002b0bf9,
0x00e72fdf,
0x0019f733,
0x00f112d7,
0x00edbfd7,
0x000ae8a0,
0x00d880d4,
0x00dfb037,
0x003c1307,
0x000e05fb,
0x0019bcfe,
0x0017fde5,
0x00e4f5fd,
0x00fbd50a,
0x000df51a,
0x001ffcd0,
0x00f5e1ef,
0x00240c1e,
0x002be1b4,
0x00fdf40b,
0x000c582f,
0x000ff56c,
0x00343a56,
0x00e92815,
0x00dc2ad3,
0x00dff7de,
0x00432619,
0x00f8e417,
0x000f01fc,
0x000fd1ef,
0x0018c7b9,
0x00b2ff0c,
0x00d6e8db,
0x000c0ecb,
0x00be15ed,
0x00d6fc07,
0x001cf307,
0x0006ee1a,
0x00ee4e50,
0x00dde250,
0x00ec1e02,
0x002fed1f,
0x000f2c0b,
0x003c0e11,
0x00c7f0ea,
0x00112f19,
0x00e71cd4,
0x000b071d,
0x00fec5eb,
0x0002e7cf,
0x00dd29d9,
0x004012d2,
0x0016f0ee,
0x00fb431d,
0x00f1fdfa,
0x00d323e6,
0x00173b05,
0x00202d16,
0x00300d14,
0x000bff25,
0x00e2f9e8,
0x000702e1,
0x00fa2d25,
0x001572f9,
0x00fb78e4,
0x003d00f8,
0x00ea204b,
0x00e41978,
0x003e1e03,
0x0048dadd,
0x00e9171d,
0x00d903ed,
0x001b0926,
0x00fbea30,
0x00050fef,
0x0039ff42,
0x00f1ec1a,
0x00220b0f,
0x00260c16,
0x00101922,
0x001ddb08,
0x00170cd1,
0x002517e6,
0x002b44f5,
0x0021f4f6,
0x00f9f1c8,
0x00e50d56,
0x00ccf72d,
0x0004d219,
0x00e41339,
0x000814e5,
0x00ddae0e,
0x00e1f80e,
0x0021e9f1,
0x00f408fa,
0x00393444,
0x0015e7ec,
0x00dce01a,
0x00190e22,
0x00ec24d2,
0x002cecd6,
0x00e1e23b,
0x008fd548,
0x00e3fc3a,
0x00fc4c3b,
0x00eef7fd,
0x00d408c6,
0x00d63a1f,
0x0027fb1b,
0x0010e918,
0x00fa4b3a,
0x00d733df,
0x0006dddb,
0x00392acf,
0x00f810e0,
0x0021dbf6,
0x000b132e,
0x00fd22dd,
0x00fe192f,
0x000f2af7,
0x00ecdf35,
0x00f6f0ed,
0x0019131b,
0x002511da,
0x00e22818,
0x00ff25fc,
0x00130d0b,
0x0005b5f8,
0x001fd6ee,
0x00ec012a,
0x0026ead9,
0x00eb0f19,
0x00011bde,
0x00f6df18,
0x00403129,
0x00f0f913,
0x002d251d,
0x001103c5,
0x000cc70e,
0x002321c4,
0x00f713d4,
0x00fb3410,
0x001edb2d,
0x00f6efd2,
0x002c3622,
0x00143a3d,
0x000ff6d6,
0x00e320d6,
0x00d0112b,
0x00341602,
0x00e01805,
0x00ce1834,
0x00e812fc,
0x00eede25,
0x00d9effe,
0x002532eb,
0x003532f4,
0x00200430,
0x00042414,
0x00f7e712,
0x00c1f4f5,
0x00e9e116,
0x00c80e2d,
0x00032d2f,
0x001507d4,
0x00d625e1,
0x00e7ff04,
0x00e508f4,
0x001530f4,
0x0010ef2f,
0x0001c6eb,
0x0029e30d,
0x001ef6e4,
0x00eff1c6,
0x00b49ed5,
0x00b09bdb,
0x00342d26,
0x001eda00,
0x00e338e1,
0x002eff06,
0x00241125,
0x00df061b,
0x0021db15,
0x000af119,
0x00254044,
0x00e719f0,
0x00da17ac,
0x00d71718,
0x002c311c,
0x00273b16,
0x000116fd,
0x00e6cbfb,
0x00f7e9e6,
0x00e2e73b,
0x001efc21,
0x000cd41d,
0x001ed927,
0x00e126db,
0x002adf20,
0x0010defa,
0x00010c06,
0x0023d4f3,
0x00eeedd4,
0x00d5de26,
0x0037db09,
0x00fd1935,
0x00b703d5,
0x00edb5ef,
0x00c3b9fb,
0x00bbd9de,
0x00add7f2,
0x001ccc16,
0x00032dfe,
0x001105ea,
0x000b1ccb,
0x00fe2531,
0x0015db36,
0x00270014,
0x00020bde,
0x00f7ea26,
0x001b20db,
0x0016c3f2,
0x00cece09,
0x00ee1815,
0x00543c09,
0x003f39eb,
0x0004ee00,
0x00c6f516,
0x0014fe0b,
0x00e12013,
0x00e4c0eb,
0x0006b610,
0x00060b1d,
0x00cee100,
0x00d3e1e4,
0x00e80906,
0x002e2d15,
0x00f91e26,
0x00fb19e4,
0x0003bbf5,
0x00291fd8,
0x001a401c,
0x00d3e30f,
0x00121439,
0x00141829,
0x00090f15,
0x00122cff,
0x001d05e7,
0x0014fcd5,
0x00e9b811,
0x002d0ce2,
0x00426532,
0x0038602f,
0x006d2eff,
0x001c24fa,
0x00e030ea,
0x00fef9dd,
0x00122804,
0x000e360e,
0x00e4f22a,
0x0004cccb,
0x00dd19f4,
0x00200f13,
0x00feb8fc,
0x00d70dd2,
0x0014f51b,
0x00da0513,
0x0002d4fb,
0x00e111f0,
0x0012f5e4,
0x000cc60f,
0x00ded009,
0x003c1d12,
0x0010da1c,
0x0000dd19,
0x000fe763,
0x003c09f2,
0x005c7230,
0x00eb1326,
0x00f41a2a,
0x00a7eb24,
0x0009f6ee,
0x00143e32,
0x00dbfff4,
0x00040745,
0x00ffbb0e,
0x0008dc09,
0x00e709f9,
0x000f0838,
0x00add4ec,
0x000dede6,
0x000fc6b9,
0x00330ecf,
0x00160551,
0x00e7e149,
0x00d70617,
0x00f1de07,
0x00651729,
0x00465244,
0x00040819,
0x0038e81e,
0x00bed615,
0x00243f57,
0x00eb0704,
0x00140bf5,
0x00363a5a,
0x000718ff,
0x0000100e,
0x00d5242f,
0x00e4fa15,
0x00e8f1e0,
0x00d61d16,
0x00c9f31c,
0x00f9101f,
0x00f0d205,
0x00ded3e7,
0x00fdfb1a,
0x0009e515,
0x001aed15,
0x00d902ed,
0x00421f0c,
0x00545a0b,
0x007f1410,
0x00def8f0,
0x00e13008,
0x0010131e,
0x0015eccc,
0x000be0fc,
0x00e4dc2a,
0x00f8e0db,
0x00f50d03,
0x0014ed19,
0x00ce18e4,
0x001ff515,
0x00200aee,
0x0016e8cb,
0x001622fd,
0x00f0e412,
0x00d5f02a,
0x0002e424,
0x00e4e9cf,
0x001930f7,
0x002735d9,
0x0029ebfc,
0x00f91cc7,
0x00f72df0,
0x00fded14,
0x00feed07,
0x004aea07,
0x00161806,
0x00d52ef1,
0x00162cf7,
0x00fd232d,
0x0013f918,
0x00d7f6d6,
0x000704dc,
0x00eb0910,
0x00e0edef,
0x00161b2a,
0x00fd02f0,
0x00edd51e,
0x002f240d,
0x00d4e809,
0x00031916,
0x00211efa,
0x00e8e70e,
0x001cdd25,
0x002127dc,
0x002e47f5,
0x00f544fa,
0x00022501,
0x00d40b34,
0x001c2b35,
0x00eff201,
0x00e60b18,
0x00e31029,
0x001931ed,
0x001df619,
0x000a081f,
0x00ffefdc,
0x000f120f,
0x002313f0,
0x00f700fe,
0x0024db21,
0x00e8ef05,
0x00f3e8f9,
0x001f32f7,
0x00ec0af9,
0x00aabee5,
0x00ffec26,
0x00fbfae6,
0x00fc241e,
0x000cecdf,
0x001bd90f,
0x00ed3126,
0x00df04fb,
0x00e5f32e,
0x00041e18,
0x0025d029,
0x00dab818,
0x001e94c8,
0x00280afe,
0x00cff52e,
0x00e1f3eb,
0x0026231e,
0x0017ff29,
0x0024f812,
0x00fbd9f5,
0x00e5e1e7,
0x001d1729,
0x00f7ea31,
0x00da0cea,
0x00f9d3fc,
0x00fcea0e,
0x000bdbe7,
0x00f014e1,
0x002f32dd,
0x00ef0209,
0x00fd0420,
0x0016fe14,
0x000223fb,
0x00ff2ff2,
0x002f1ad8,
0x00050fe7,
0x00e2fbe1,
0x00db1825,
0x0003e217,
0x00f11302,
0x000116d6,
0x001a19fe,
0x00342131,
0x00e61ce2,
0x00e7d7f8,
0x0018f6f3,
0x00e5f6ee,
0x00f72738,
0x0006333e,
0x00e02fdd,
0x0017eefe,
0x00f12a02,
0x001be02c,
0x0022231d,
0x000b05ec,
0x0047182b,
0x0025504d,
0x0039e4c6,
0x0015211d,
0x00dbf3f2,
0x00d0d023,
0x00030d24,
0x00123740,
0x00dbe013,
0x002c061d,
0x00de0ff9,
0x00f41620,
0x00f7e014,
0x00f711da,
0x000fd305,
0x00010dfb,
0x00f70bfb,
0x0010f9ed,
0x0022e5f1,
0x002517d2,
0x0014e1e5,
0x00f8e002,
0x00e9d2f8,
0x00e9ccdf,
0x00ef0bdc,
0x000ce211,
0x00e501ec,
0x00d9d2eb,
0x00ff0b15,
0x001109e0,
0x00122104,
0x00d2f5d8,
0x00d611e1,
0x00f9f205,
0x00131a0b,
0x000d2211,
0x00e203fa,
0x001200ff,
0x00edf6d2,
0x0012fbf0,
0x00eeeb0b,
0x00e7ea09,
0x00d3dae5,
0x00d8dafe,
0x00ccf009,
0x00dae51d,
0x00d7ff17,
0x001825d2,
0x001cd8cb,
0x00ddd404,
0x00f01115,
0x00ec06ee,
0x00ddfcff,
0x0023fff6,
0x00effae9,
0x0015dc15,
0x00f51302,
0x001a0de7,
0x00eeda04,
0x0015ddf7,
0x00f0f00a,
0x001a0bdd,
0x00f0181c,
0x00e4e30c,
0x00dad7f8,
0x00012b00,
0x00191df8,
0x00dc290a,
0x00e9061f,
0x00eded2a,
0x00042025,
0x00fb1b15,
0x000a1826,
0x00ff14f3,
0x001ad7fb,
0x001f0fe0,
0x00fdea29,
0x002d34f3,
0x00faf420,
0x00e71eed,
0x0007ffd8,
0x001a2522,
0x00d8e717,
0x00d12604,
0x0026302e,
0x001f2610,
0x0029f3fc,
0x0005eee8,
0x00eac204,
0x00fdcef0,
0x00ee070d,
0x001e00f8,
0x0020f4eb,
0x00d7f023,
0x00ecdf28,
0x00f12b1a,
0x0016e129,
0x0001f9e7,
0x00fa3d0c,
0x00f92005,
0x00d4e81d,
0x00d7091c,
0x00f7e928,
0x00e113db,
0x0001da13,
0x00fe080a,
0x00032fdd,
0x00022bef,
0x002412ef,
0x000d3428,
0x001ded11,
0x0015f8d5,
0x00d4dbf8,
0x00ebd6f1,
0x00110b0c,
0x00161f27,
0x002a0a24,
0x00fd0f10,
0x000b0e3d,
0x0003f8e9,
0x001a1edf,
0x00011fe8,
0x00df1b17,
0x00fa06ec,
0x00d613f4,
0x001af217,
0x001ed922,
0x00dce8eb,
0x00e1f40a,
0x00ffeb10,
0x0016f826,
0x001a300b,
0x00f32026,
0x0021d910,
0x0029d7ea,
0x0006df17,
0x00221e23,
0x00d81606,
0x00f91029,
0x0030f904,
0x0018f30b,
0x00141fe5,
0x00d0cc0f,
0x00e408f6,
0x00242839,
0x00e90df4,
0x0014d4e3,
0x00fb19dc,
0x00fd1df7,
0x00e4e6c1,
0x00ea24ff,
0x00f53c09,
0x0003331a,
0x00eb042d,
0x0009ee12,
0x001319e1,
0x00ed2e30,
0x00fe1c12,
0x00082ffa,
0x00f00de6,
0x00ece40e,
0x00142b02,
0x00122201,
0x00ec0327,
0x0012e81f,
0x00ddf323,
0x00b90708,
0x0014f1fb,
0x00fc02f1,
0x00e22402,
0x0016f022,
0x0014e40d,
0x00292414,
0x0001182a,
0x000c221d,
0x0008dc14,
0x001ef80f,
0x004117fa,
0x00fef904,
0x000ff8f7,
0x00160ad8,
0x001aee07,
0x0022f533,
0x00ec0fef,
0x0006b3f5,
0x00f5efd8,
0x00d9e119,
0x0015091e,
0x0001edeb,
0x00e5111d,
0x002c0d18,
0x00fe2ce1,
0x00f523ed,
0x00284723,
0x001e1639,
0x00f2f9f4,
0x00e0d3e7,
0x001b03cd,
0x00e1fbcd,
0x00ea0ceb,
0x00dcfffb,
0x00e8f51f,
0x00130d25,
0x002e1e09,
0x0000211b,
0x00e520fe,
0x0031311f,
0x00ffde1d,
0x00ff0d12,
0x000af615,
0x0029eddb,
0x00f71a04,
0x00ff1a17,
0x0006ed1d,
0x00e3ff02,
0x00120af5,
0x00da1bf7,
0x00f0f931,
0x00181433,
0x00f0f410,
0x00273200,
0x00322af7,
0x00e618d7,
0x00fb02df,
0x0018efde,
0x0024122a,
0x00effb0a,
0x00e404f3,
0x00fc03f9,
0x00e81fe2,
0x00051809,
0x00dd0901,
0x00e0c1f4,
0x00f7ed11,
0x002bf9fa,
0x00f922e2,
0x00030b27,
0x001e27dd,
0x00f703f3,
0x002f02e7,
0x0000ee02,
0x000ddc23,
0x00df2e21,
0x002ae23b,
0x00170319,
0x00d4c61f,
0x001a13f1,
0x00dbefed,
0x00000229,
0x00fd012b,
0x000afbe8,
0x000ced28,
0x000518e6,
0x00132016,
0x001afbf9,
0x0014fa08,
0x000401d6,
0x00e2f9d4,
0x00f9e626,
0x0023dff5,
0x00d62de9,
0x00c69cb4,
0x00a901ce,
0x00dbe3ee,
0x00d4ff17,
0x001bd5f4,
0x00182bff,
0x00e621d6,
0x000826e8,
0x000b182c,
0x00e31c06,
0x0024110b,
0x00281e2b,
0x0010f3f7,
0x00dc172e,
0x00141324,
0x00dcd41f,
0x00130aea,
0x00f5e6e0,
0x00e8d90a,
0x0011f219,
0x0001e8de,
0x0000e3fd,
0x0013fcf7,
0x001f2b15,
0x00f20c0f,
0x00232504,
0x0011f3e5,
0x001c1bd1,
0x00e2f01e,
0x00f1fd21,
0x00d50ff0,
0x00d5082d,
0x0027de3b,
0x00da0921,
0x0001d8f1,
0x00e1fee1,
0x001bf808,
0x00e3e328,
0x00e60126,
0x001e23dc,
0x00ddf0ff,
0x00df2a18,
0x00fde71d,
0x00dcedf0,
0x00f2dc28,
0x002406e3,
0x00071ede,
0x0002190c,
0x00d91d14,
0x00ddf8e6,
0x00001215,
0x00061407,
0x001b1104,
0x00eef232,
0x00292816,
0x00f933f2,
0x0009f505,
0x00d6ea24,
0x000deb2d,
0x002e0905,
0x0012ddf1,
0x00ebf90d,
0x0001e01e,
0x00eb001e,
0x00f3231d,
0x00e82cf9,
0x0002e1f8,
0x0026c8d4,
0x00f32109,
0x0008fb31,
0x00151ce3,
0x001ff7ee,
0x002ff617,
0x00ffe905,
0x000ff710,
0x00ef0f14,
0x0019ec31,
0x00eaf34a,
0x0028bfd9,
0x000402f4,
0x00310418,
0x00d805e7,
0x0003fee8,
0x001ced22,
0x00d7ebef,
0x00faedfc,
0x00ea05ef,
0x002421fc,
0x00ea1c08,
0x003026fa,
0x002de7e2,
0x00db0d08,
0x00ed230c,
0x0026dd1c,
0x00fcf218,
0x00ed11f0,
0x00f23d38,
0x00241f17,
0x00381208,
0x00f4d528,
0x00dbdde0,
0x00f5f0e9,
0x0021ddef,
0x002c300d,
0x00091fec,
0x00f31718,
0x0009d92a,
0x000ff818,
0x0006fc18,
0x00001cf0,
0x001b0525,
0x00042d07,
0x00121a01,
0x001803e6,
0x0006d20c,
0x00d7f4db,
0x00e8080d,
0x00193605,
0x00e00713,
0x000fef1c,
0x00f3dded,
0x000f14ec,
0x0024f50c,
0x00eff73a,
0x00facdd9,
0x00e5ff08,
0x0006f922,
0x00e6db24,
0x00dbddd3,
0x00211207,
0x001a0a0b,
0x0017f3dd,
0x0004f1fa,
0x003628fd,
0x00e41b26,
0x00013119,
0x00e0e7ef,
0x00ebfadb,
0x0029f3f6,
0x00f8f3fb,
0x00e11029,
0x00e7110e,
0x00eb18ef,
0x00fe0a18,
0x00284319,
0x003e3f6d,
0x00371144,
0x001523eb,
0x002bdfe1,
0x002e1de1,
0x002efbef,
0x00453430,
0x00131dfd,
0x0036eae9,
0x0020ec20,
0x00f3240f,
0x00533713,
0x00e61e15,
0x00f80323,
0x002f1418,
0x0011f339,
0x000c060b,
0x001ff110,
0x00fef1d9,
0x00f33e19,
0x00f82403,
0x0016fadb,
0x00132dea,
0x00582936,
0x003b42ff,
0x005f3eea,
0x004d2a2d,
0x003f1b03,
0x00261d27,
0x0071f12b,
0x00170925,
0x0011f24f,
0x00f72523,
0x00f8fe10,
0x003d0e08,
0x00eeebf6,
0x00171b15,
0x00eff9fe,
0x00190b36,
0x00253aef,
0x002205ee,
0x0013e7e1,
0x000af4fc,
0x0002e9f0,
0x00321d15,
0x00e7fd16,
0x0028eb2c,
0x00f1f703,
0x000ee625,
0x002a3319,
0x000109e2,
0x00161200,
0x00edeb29,
0x0001e50f,
0x000127df,
0x00fef8e4,
0x002c1703,
0x0001180a,
0x00f609d8,
0x000d3322,
0x00f0f412,
0x00edecfc,
0x00f72622,
0x00372f10,
0x00ebf6e6,
0x00de01e0,
0x0002c3e6,
0x00e00d0b,
0x00e33621,
0x00f033ea,
0x00f72bec,
0x00fcebe9,
0x00253105,
0x00073bf2,
0x00ee02d7,
0x002ef007,
0x00252ffb,
0x00062ee0,
0x000406c5,
0x00efdae7,
0x00160016,
0x00f2c416,
0x00dd070f,
0x00e631e1,
0x0012e606,
0x00111e03,
0x00f8ffdf,
0x001709f0,
0x001c2516,
0x0014252f,
0x00f10a20,
0x00df13f2,
0x00ed10e8,
0x002608ea,
0x0017e718,
0x0015ebec,
0x00551344,
0x002f2816,
0x00ebd81d,
0x00f6f71c,
0x0002f625,
0x000004f2,
0x000b06de,
0x0036122f,
0x00de17e2,
0x0029f810,
0x00ec201f,
0x00fbdfe8,
0x0001270b,
0x00f719fe,
0x0014ff02,
0x000cfd08,
0x00183618,
0x00d6d6cb,
0x00e700e8,
0x00dc1f0a,
0x0010dcfe,
0x0033fde9,
0x002d21ea,
0x0025f8f8,
0x002a06f8,
0x000ffa42,
0x002efbd9,
0x002706ec,
0x000fe60d,
0x00d40bf1,
0x00f80cec,
0x00172301,
0x001f16d3,
0x00e9fb1f,
0x00f01e26,
0x00082116,
0x00210c2c,
0x00fb02e4,
0x00342ae0,
0x001cdfee,
0x00e1e4fb,
0x002cf323,
0x0023e8dd,
0x00e0e505,
0x00e827c2,
0x001d210c,
0x00fffc2b,
0x001e2011,
0x000b0aee,
0x000af6e4,
0x000fff26,
0x00fcff1e,
0x00e31d12,
0x000bf4d9,
0x0017f707,
0x00f10d06,
0x002119f1,
0x000df514,
0x0017e1e7,
0x001f120c,
0x00022c10,
0x00e3eb23,
0x00ed1d14,
0x0028fdfe,
0x00e5e21c,
0x00ec04da,
0x00ed1d21,
0x0009eff0,
0x00150c07,
0x00e30016,
0x001a1c29,
0x00dc0cef,
0x001501f4,
0x00e111f0,
0x00d8e406,
0x00f2ef08,
0x00182323,
0x00e32a17,
0x0000f3df,
0x00161e0c,
0x00fae1e5,
0x0032070b,
0x0001fb19,
0x00e6ecef,
0x0013e014,
0x000d06e8,
0x001f24fd,
0x00f11d10,
0x000ee426,
0x000c100a,
0x00e60c1a,
0x00dfd2dc,
0x003cf742,
0x00490410,
0x003a3911,
0x00041724,
0x00f41416,
0x00d11fe8,
0x000603e6,
0x00fae71d,
0x001df91d,
0x001323ec,
0x0011d500,
0x00d80a2c,
0x00081b14,
0x0008f020,
0x00eb210c,
0x00f2f0f0,
0x00f32824,
0x00fd1714,
0x00ec1a1e,
0x001324e7,
0x00fbe504,
0x0024efdd,
0x000f18e8,
0x00e711e1,
0x00e5e91d,
0x00f71eef,
0x0012f5fe,
0x00001afa,
0x00ed1420,
0x001816e8,
0x00de1807,
0x000614ef,
0x002102fa,
0x00082df3,
0x00030cdf,
0x00faf3e3,
0x0016fbf6,
0x00f90b21,
0x00e4e5dc,
0x001b25e5,
0x00fa2611,
0x0018191e,
0x001628eb,
0x00def5f3,
0x00daf727,
0x002111f4,
0x00f91023,
0x001c0324,
0x000d050a,
0x00d0e0fb,
0x00e53933,
0x0004e902,
0x002df9f7,
0x00161420,
0x0029ddf1,
0x00fd0be2,
0x0024da1f,
0x0017111c,
0x00250cfb,
0x0015f726,
0x00040d11,
0x00fb0313,
0x00e3fbe4,
0x00dd1ee7,
0x00230efd,
0x00ed1cfa,
0x001c28fe,
0x00e21bf4,
0x00f0dd18,
0x00d80510,
0x00d9efe6,
0x000ad9f2,
0x00ee23e0,
0x001f08d7,
0x001fed1c,
0x00000a1b,
0x00e416f2,
0x000916f2,
0x00f4011d,
0x00daea1d,
0x00160c10,
0x00f30e20,
0x00e10d13,
0x00221ee7,
0x0023ecfe,
0x000adf0a,
0x00090fd7,
0x001607e8,
0x00e3f1d6,
0x001adce4,
0x00ee011c,
0x00ecde27,
0x00f206fb,
0x0019fbad,
0x00f52229,
0x000729ec,
0x00792123,
0x0036faee,
0x000a12eb,
0x0012dfc1,
0x000d2cd9,
0x00172dfd,
0x000e01d3,
0x00e820e5,
0x00f316d6,
0x00201f10,
0x00e32014,
0x00e7fb07,
0x000207df,
0x00e9e006,
0x0012f5d8,
0x002505e7,
0x001700f4,
0x00ff1cd1,
0x002be406,
0x00f5fcee,
0x00e6c1c6,
0x00e302d9,
0x0008f9b8,
0x001bf2e3,
0x001e1e08,
0x000e25be,
0x000b11e5,
0x00e9100f,
0x00efe3e9,
0x00dcfee2,
0x00f22300,
0x00ddf1c5,
0x0026109e,
0x002cf3e4,
0x002f11d8,
0x0009f8c4,
0x00233514,
0x0025edbf,
0x001909ae,
0x00eb13ed,
0x001110d0,
0x00fb19cd,
0x000a5023,
0x003810fa,
0x004605c6,
0x0021fcfa,
0x00e6101e,
0x00bfd4dd,
0x00ec4717,
0x00453107,
0x003c3225,
0x001ff408,
0x0010f0e8,
0x00e4f80b,
0x00e50d04,
0x00241020,
0x00f0ef0b,
0x00daff26,
0x00eafe20,
0x00ea0822,
0x003006e8,
0x002002f6,
0x001d2812,
0x00ea220c,
0x00002916,
0x00271e03,
0x0029e414,
0x00f405e6,
0x00e3f302,
0x00f7fef4,
0x00f4feed,
0x0003eb0c,
0x002cfe2d,
0x0009290f,
0x000be8e8,
0x002ce9df,
0x002b0af4,
0x0010ebff,
0x0011de04,
0x00fdfa05,
0x000418e4,
0x001a06f8,
0x00f202ea,
0x00e51b1a,
0x00e319db,
0x00090d1a,
0x00eff406,
0x0016f8ef,
0x0008f814,
0x00fb1517,
0x00ffe6e4,
0x00081321,
0x00f6f2fb,
0x001113f2,
0x0006ea03,
0x00ee3821,
0x0015bed0,
0x00debaca,
0x0006cbfc,
0x00e32502,
0x00f814ee,
0x0002e5f1,
0x001de916,
0x000e1b19,
0x00140300,
0x00fa0ced,
0x0027eef8,
0x00030013,
0x00eadfeb,
0x0006e007,
0x00d8d419,
0x001bf0fd,
0x000601f3,
0x000913ff,
0x00f110fc,
0x000af702,
0x00051b15,
0x00040511,
0x00e2ea1d,
0x0012fc09,
0x001a00e7,
0x00e3f8e0,
0x000221f3,
0x00241a25,
0x000f21e2,
0x002928ed,
0x00ff0e1d,
0x00f5f9fa,
0x00e42dec,
0x0007ef09,
0x00102b15,
0x000cece8,
0x00002635,
0x003a342c,
0x00fa2de9,
0x00f4050c,
0x00e81f23,
0x000ee006,
0x001615ef,
0x0024eef9,
0x00301b22,
0x000407d6,
0x00184827,
0x00364bf6,
0x0002256d,
0x00dcdc49,
0x0012083f,
0x00d22b09,
0x002619db,
0x006328e8,
0x0017d2e2,
0x00f1fefa,
0x00f93e34,
0x0041fcef,
0x002a2301,
0x000afa12,
0x001feb07,
0x00eb22df,
0x0010ff0b,
0x0002df16,
0x000ff4f1,
0x00ede60a,
0x000937de,
0x00151734,
0x00eff719,
0x0005e4fe,
0x00d9d8d6,
0x000ff324,
0x0001ebfc,
0x00e604fe,
0x00270cdd,
0x00dce91e,
0x000d0be7,
0x00dc1ad6,
0x001af5fe,
0x00daf618,
0x0006ddd5,
0x00eefcf8,
0x0022e718,
0x003801ea,
0x00141308,
0x00e7d9e9,
0x00f6e5f2,
0x0028ff1a,
0x00ffcaed,
0x00f602db,
0x00282508,
0x001907ea,
0x00e1f704,
0x00200404,
0x001d0a02,
0x00e6121f,
0x004e4e4f,
0x0028083d,
0x0016f40b,
0x00fcf0e5,
0x000e031d,
0x001c1418,
0x00170a20,
0x00f7ec1d,
0x00ff1b02,
0x00fef21c,
0x00171b0e,
0x000e02da,
0x002c0f09,
0x00eef01c,
0x00ef0ae7,
0x00112ced,
0x00070425,
0x0019edfd,
0x00eee927,
0x0011081c,
0x00021709,
0x0002ebe5,
0x00210714,
0x00f3e51c,
0x00fc220b,
0x00e9f1f6,
0x00122cf5,
0x001dfefb,
0x0014fdfb,
0x002de423,
0x000811eb,
0x000bfc27,
0x00fef6e6,
0x00292200,
0x000c101f,
0x0029fede,
0x00f12b05,
0x00ef3005,
0x00fc17ed,
0x00300ff2,
0x00ea28e2,
0x001a27f1,
0x00181722,
0x001dee1b,
0x0004ee05,
0x001423d4,
0x002e0110,
0x002c20fd,
0x00d71c4c,
0x00eed325,
0x00f63e4b,
0x000e0d31,
0x00372311,
0x0032332f,
0x00fc0bd5,
0x00fadf12,
0x00dc1a0c,
0x00323108,
0x001436fe,
0x002a3202,
0x00f3fa07,
0x00faf322,
0x00fb08ee,
0x00fbfefd,
0x00e6210e,
0x0003eb19,
0x00e72bfc,
0x00f8fd28,
0x00f9eee1,
0x00dfd71b,
0x0014f200,
0x00e910e1,
0x00020607,
0x00151301,
0x00fb0cff,
0x00f3ed0d,
0x00dd1af0,
0x000218e4,
0x00e3f629,
0x00f5d5fb,
0x00e708e7,
0x00eb0103,
0x00edf7ea,
0x00ebdd29,
0x0000f4fd,
0x0016dceb,
0x00ec0ff9,
0x00fcff0a,
0x00efeceb,
0x000e0ef9,
0x0017051e,
0x001edafb,
0x00e8f627,
0x00e1ef12,
0x001ceefb,
0x0030f52d,
0x0022483b,
0x001e3913,
0x001216f8,
0x00f01d1b,
0x0011e6f6,
0x0018e522,
0x00dd2712,
0x00faf108,
0x00f3062f,
0x00f6f8fd,
0x00e51b20,
0x0017eaeb,
0x00ec21f6,
0x0015f024,
0x00e90efc,
0x00e7fe2d,
0x0014eb16,
0x00cceff6,
0x00dd1a30,
0x00fe0329,
0x00d80e1c,
0x00ee131d,
0x00d108f5,
0x0007f71e,
0x00db0d26,
0x00e504e4,
0x00cbdc0a,
0x00f4391f,
0x00170ff9,
0x00d7eeec,
0x00dc01f7,
0x00dde708,
0x00c9fbec,
0x0012fc1d,
0x00fa030a,
0x00e1f1f5,
0x000d2221,
0x00dceb0f,
0x00e9dd12,
0x0025f12b,
0x001b1c1d,
0x00fd14eb,
0x00fff2e5,
0x00ffe309,
0x000d06f9,
0x00f11d1c,
0x00d6d0e8,
0x00000a16,
0x001be5e2,
0x00f90911,
0x00e00811,
0x00fa12d8,
0x00191f05,
0x0018fd0a,
0x00e9eae3,
0x00e5f909,
0x00dcece4,
0x00e302da,
0x00dcdef6,
0x00e60019,
0x00daf70e,
0x00dde502,
0x000b0fea,
0x00d7d6ef,
0x00001ae3,
0x00fbee06,
0x00ede018,
0x00f50d00,
0x00f7e6ff,
0x00001ef3,
0x00eef1e9,
0x00e9ff04,
0x00eee6eb,
0x00d914f5,
0x00011115,
0x000906f4,
0x0017fa18,
0x001df41e,
0x00131d20,
0x00e2e31f,
0x00dfeb13,
0x00f104cd,
0x00efefff,
0x00dbd708,
0x00d3d200,
0x00f7fd0c,
0x000efdd6,
0x00e2f5e8,
0x00ec0fef,
0x0015db00,
0x00f0ead0,
0x0005e700,
0x00f1190a,
0x000b0c11,
0x0014263e,
0x002203f6,
0x00d8f4f9,
0x001546fd,
0x000c16fa,
0x001fe918,
0x00f5fd1e,
0x00e92aef,
0x00ea0516,
0x00ebf6e4,
0x00fc16e1,
0x001ce5f1,
0x0029e5ef,
0x00e5e2e6,
0x00f600ff,
0x00ee15e6,
0x00f414f8,
0x00f5261a,
0x00fa08e7,
0x001fe613,
0x0011f525,
0x00eb02e0,
0x00e51cde,
0x00e3f4e7,
0x00022415,
0x00fcfa17,
0x00ef2817,
0x00e5f6fc,
0x00f62529,
0x0006200d,
0x000be9e6,
0x00ece123,
0x00ec1efd,
0x001327eb,
0x00e503dc,
0x00e401e7,
0x0009fc20,
0x00fe0828,
0x000817d5,
0x0023f3f7,
0x003f0b0d,
0x00040225,
0x002e1215,
0x00010829,
0x0018f3f2,
0x00f71d06,
0x001e072d,
0x00f31d03,
0x00d015ea,
0x00ea01f2,
0x00f91925,
0x0008173b,
0x0016181f,
0x000e0cdf,
0x00f7f718,
0x00dc24e1,
0x001214f2,
0x000ae009,
0x0024de27,
0x00e519e3,
0x000b1a10,
0x00d7efe1,
0x0016e9f1,
0x00ee20f1,
0x00160fe4,
0x00070010,
0x002221f5,
0x000402e9,
0x00f91a00,
0x00dd0113,
0x00f5120f,
0x00011104,
0x00e2f811,
0x00221901,
0x00282003,
0x0027e81d,
0x00f81cf3,
0x0010e21e,
0x00f328fa,
0x00f0fb19,
0x000201f9,
0x00151803,
0x002520ee,
0x000d2520,
0x00f30d05,
0x001b0efc,
0x00e413ff,
0x00ec31f1,
0x00eae608,
0x0020261a,
0x00f22e0d,
0x00e929fe,
0x00ec12e2,
0x0029ecfa,
0x002d1401,
0x00d8e60c,
0x001c2622,
0x00fc230f,
0x00c8ff12,
0x00d845fd,
0x00f0514f,
0x00231602,
0x00294338,
0x0022574b,
0x0081f8e6,
0x000e4a2b,
0x0021361a,
0x00051dd9,
0x00fb14fc,
0x0013e20e,
0x00e3fd12,
0x001ce0d8,
0x00f6e6fa,
0x00b5e5d5,
0x00d60f2c,
0x00ef0b2a,
0x00bfcec9,
0x0014e527,
0x00da2d0a,
0x00a2ca07,
0x00f7fe36,
0x000e2e02,
0x0097b305,
0x00dd150b,
0x00fa1a1a,
0x00e23a43,
0x00273314,
0x0028343b,
0x00bc0fd1,
0x00e22503,
0x000a4004,
0x00ed0b07,
0x000ff711,
0x00f03516,
0x00dab503,
0x00acf80c,
0x00db1117,
0x00ddc517,
0x00161310,
0x003b4539,
0x0007d4de,
0x0032f42b,
0x00293c1b,
0x003a250a,
0x000202ef,
0x001adb0d,
0x00084e19,
0x00f71b12,
0x00103d0f,
0x0027e8f9,
0x00130001,
0x00022a1c,
0x00f11a20,
0x001c0df3,
0x00fefb06,
0x0001e203,
0x00f6dc0a,
0x00f40f0e,
0x0023f904,
0x0001e5ea,
0x0007f709,
0x00f30c03,
0x00f92e2e,
0x00f91fe4,
0x0000e925,
0x00fbe9e6,
0x002aea06,
0x00ec16e1,
0x002be028,
0x0009eb1f,
0x00efe30f,
0x002202f7,
0x00e014f1,
0x0025100c,
0x00242702,
0x0005de1b,
0x0027f9e1,
0x00eaf504,
0x00f5f01f,
0x0002240b,
0x0015dee8,
0x00251de9,
0x00de1e0d,
0x000625d6,
0x000c16ee,
0x00e12926,
0x002af91c,
0x00061801,
0x00f3d5f9,
0x000f031d,
0x000af90b,
0x00f4e01e,
0x00e6d1e5,
0x00fce911,
0x001b29f7,
0x001b1d1c,
0x0026031a,
0x001d06fa,
0x00de1b14,
0x0019290b,
0x001618fb,
0x0019fa01,
0x00fadf15,
0x00e4cffb,
0x0008f502,
0x00fc041b,
0x00050025,
0x0024e417,
0x00ef17ed,
0x00f4e702,
0x00f0fb2e,
0x000d20e8,
0x001412f4,
0x00110a10,
0x00181702,
0x0020191f,
0x0022181b,
0x0018f10b,
0x001be002,
0x00051f0c,
0x00e92306,
0x0004ec1c,
0x002aec29,
0x00f2f5db,
0x001cfb11,
0x00f3f621,
0x0015f70c,
0x00e72711,
0x0001e6f7,
0x00e41a2e,
0x0005f0f4,
0x003318f1,
0x001b2a0f,
0x000e0211,
0x00ee07e8,
0x00e613e9,
0x001d24ec,
0x00fbf905,
0x002725e8,
0x00fff0eb,
0x00ee0406,
0x001219fa,
0x002315fc,
0x001f0b1f,
0x0017eee5,
0x00070bf6,
0x00ec08f5,
0x00131511,
0x0015fb26,
0x0011fbfd,
0x0006010e,
0x0012f013,
0x0000e9ef,
0x00f31306,
0x00f2f9eb,
0x00ff0506,
0x00f0f007,
0x0002f9c6,
0x00d0dde0,
0x00ed171c,
0x00fbf9f2,
0x00fa0f0a,
0x000f110e,
0x0011eaf8,
0x0011eeeb,
0x00080e0b,
0x00241a19,
0x00213a1c,
0x00101b16,
0x00f915ef,
0x0006091d,
0x0016fc02,
0x00000ef4,
0x0011e820,
0x00fa2021,
0x00fe1be8,
0x001e0611,
0x00e80ee9,
0x00212cfe,
0x00fa08f1,
0x001a6728,
0x001e040c,
0x00020f00,
0x00fdf71b,
0x00efef0f,
0x00021312,
0x00ed0a24,
0x001805ee,
0x000a000a,
0x00d8061f,
0x0011eafb,
0x00f6e908,
0x00e7ed1d,
0x0005f714,
0x00dcf4e1,
0x00dfecff,
0x00ddf4e3,
0x00f6df18,
0x0004f829,
0x00ecf81f,
0x00fc1805,
0x00e60510,
0x00d6fe0b,
0x00d5f8ee,
0x00e7e0e5,
0x0094dbe5,
0x00e32f15,
0x00c4fbf1,
0x00070ff7,
0x00e1e70a,
0x00f4eb16,
0x00de100c,
0x00fc25e1,
0x00e1ef1e,
0x00043725,
0x000e375c,
0x00e53e1d,
0x00fcecf1,
0x000d140c,
0x00eaeee3,
0x00f70210,
0x00061bf1,
0x00e8edf2,
0x00151a0d,
0x00e71319,
0x0008e5f1,
0x00f04439,
0x00b15670,
0x00b2547f,
0x00eafc1e,
0x00ee2316,
0x00fb07ec,
0x00e1ea1a,
0x00fef4fa,
0x0004e611,
0x0011f5eb,
0x00f01b06,
0x000a1b0c,
0x000b201c,
0x0004fa05,
0x00020404,
0x0008f310,
0x00fdee19,
0x00e31220,
0x00f621f2,
0x00e12004,
0x00eaf022,
0x00ef150c,
0x002115fe,
0x001b071c,
0x00ebdf11,
0x0000dcfc,
0x00ecf40d,
0x00f52916,
0x00d3f0f3,
0x00e4dde2,
0x00e723ee,
0x00070213,
0x00151af5,
0x00f20805,
0x00100921,
0x00db0e02,
0x003008f9,
0x00fff80d,
0x0014fa0f,
0x00ef0fff,
0x0002fcf0,
0x00171216,
0x00fbf5f0,
0x00070514,
0x000de806,
0x0017141e,
0x0018fb09,
0x00f9e71d,
0x0027f229,
0x00100b1f,
0x0001fa17,
0x001d00ea,
0x00180ef2,
0x000ef5ed,
0x00e6f322,
0x00f2f21a,
0x001e0521,
0x0014f5f3,
0x00fc1ffe,
0x00ef020f,
0x00edfbef,
0x00fae90a,
0x00f71111,
0x001b1102,
0x00e3fbec,
0x0010f209,
0x00f0fa0c,
0x00ddf710,
0x0009192d,
0x00ff171a,
0x00021bee,
0x001d1010,
0x0003e4e0,
0x000413f0,
0x00f6f316,
0x00fd00e4,
0x00fed2da,
0x00fcd500,
0x0022fff6,
0x00fd0206,
0x00171015,
0x00f7f4f9,
0x00f217f6,
0x00f4e40a,
0x00111e22,
0x001c1a0a,
0x00f20ef6,
0x000ff00b,
0x000aedf2,
0x00fb0af9,
0x0017f90d,
0x00011d1d,
0x0003fbf6,
0x00f62113,
0x0022ff13,
0x00ea0620,
0x000610f6,
0x00f83317,
0x00f834f3,
0x00ed09e9,
0x00fdf91b,
0x00f71d06,
0x0008ea02,
0x00ef2424,
0x001cfa21,
0x00ed14ff,
0x000afa12,
0x0024f700,
0x00f9f5ea,
0x001d0b0c,
0x0019ec0b,
0x00e518f5,
0x0007f310,
0x00f7e408,
0x00f6e90d,
0x00fff70d,
0x000bfc30,
0x00fb10fc,
0x00ebe717,
0x00f50217,
0x0000fdf0,
0x0013fbf2,
0x0020ea15,
0x00cbe41a,
0x00dbeb06,
0x0009e4d3,
0x00effafc,
0x000c22f7,
0x0001e8f5,
0x00011204,
0x001519ef,
0x000105fe,
0x001ef61c,
0x000c0011,
0x00052a23,
0x00f8f204,
0x000fe7f6,
0x00eee7f6,
0x00001802,
0x001cfd03,
0x0024ff1c,
0x00f50903,
0x0015f5ea,
0x001ef01e,
0x001d2be4,
0x004d1b10,
0x003211f8,
0x00f0f719,
0x00fff80f,
0x00071de8,
0x00f3f30e,
0x0018e91d,
0x00210d1e,
0x0015f7ee,
0x002016e0,
0x0024eb0b,
0x00200b0e,
0x00eaf7ec,
0x00fde610,
0x000805f9,
0x00e300fa,
0x00ea0d14,
0x00272718,
0x00f60236,
0x00d3ed03,
0x0015fefa,
0x00ea05ed,
0x00dfe504,
0x00f111e3,
0x00fd1306,
0x000815e2,
0x0016eb1f,
0x00f2a9b1,
0x0023cdb5,
0x0019010a,
0x001201f2,
0x00ec01ef,
0x000e06e7,
0x000d01df,
0x00f5e4fa,
0x00351c26,
0x0004fbf1,
0x00150808,
0x0002f2f0,
0x000a1312,
0x000de905,
0x002305e4,
0x00201b0c,
0x00f00800,
0x00eb0de7,
0x000c1b1b,
0x00f807f8,
0x000e0d18,
0x00ee16ff,
0x00160de1,
0x00241a0c,
0x00212014,
0x001c1be9,
0x001ef5f9,
0x00061f0c,
0x0007fa11,
0x0006e4e4,
0x00fb050f,
0x00fa1607,
0x00ef0e11,
0x000a02fb,
0x000e08f6,
0x0002e7e0,
0x00f9e0ec,
0x0007e8e4,
0x00132317,
0x00f21621,
0x00fc04f9,
0x00e90af7,
0x0005001c,
0x001b17f8,
0x0019ec05,
0x00e31010,
0x000a15dc,
0x00fe0df6,
0x00d7d1fb,
0x00dadee3,
0x000bf820,
0x0008221f,
0x0014f4ff,
0x00e5f70d,
0x00fee00e,
0x000108e5,
0x001b1a2b,
0x0009fcff,
0x001b2308,
0x001aff17,
0x000de7fa,
0x00f008fb,
0x00f1f702,
0x002112f7,
0x00f9ece8,
0x000af21d,
0x00ef08e6,
0x00040bf5,
0x0020fa02,
0x001532f1,
0x0000fc15,
0x000d1eef,
0x00f40508,
0x001e0ee6,
0x001c03fe,
0x00241506,
0x001a01e9,
0x00f21dec,
0x00eadcf0,
0x0008e0ee,
0x00e1de14,
0x00eef0e2,
0x0015ecf7,
0x0010f6e7,
0x00230b04,
0x001a01fa,
0x00230302,
0x002b0702,
0x0011ede3,
0x00f906f2,
0x00edcdfe,
0x0011eb0b,
0x00031d14,
0x00fd12f7,
0x00f2fcee,
0x000ceff6,
0x00112312,
0x00fa0408,
0x00051b02,
0x00ebe417,
0x00211b04,
0x00eddd0f,
0x001f1c16,
0x00f21207,
0x0001e02e,
0x00121549,
0x00fcf220,
0x00e4df13,
0x00ec0af8,
0x001eea1a,
0x00fa0412,
0x0004e6f0,
0x0016fa1a,
0x000b1ef8,
0x000503fe,
0x00f1eafa,
0x0010e4f2,
0x001ecafe,
0x00f5013d,
0x00f71216,
0x0002ff17,
0x000de9f3,
0x00fa17ee,
0x00ebef10,
0x00ecf3fe,
0x00ed051a,
0x00ef0916,
0x00fa1c0b,
0x001a0ff7,
0x00f90af7,
0x000e1f02,
0x0029130a,
0x00f81d08,
0x0014f803,
0x001522dc,
0x00242cf4,
0x00f60604,
0x0008effb,
0x00f313fe,
0x0012fb17,
0x00d815ed,
0x00ea1513,
0x0003de0d,
0x001af118,
0x000b262f,
0x00e5e919,
0x000923eb,
0x000eee08,
0x001d1ff7,
0x00051222,
0x0004fe10,
0x00ed2120,
0x00011c04,
0x001aeb1f,
0x001cf023,
0x00ea00f2,
0x00f914e5,
0x00fe1012,
0x00f3e2eb,
0x0008e500,
0x00ea170e,
0x000c1aef,
0x00e6f2fa,
0x0005f9f5,
0x00f8e411,
0x002c2501,
0x0000fa01,
0x00f72002,
0x00fd0602,
0x000506f2,
0x00081700,
0x00f7fbfb,
0x00e50302,
0x0009f400,
0x00ff0f12,
0x00e500f3,
0x000612f4,
0x00f10f0d,
0x00f721ee,
0x0021eef4,
0x00f82305,
0x00ee0b10,
0x0030fbf4,
0x0003f4ea,
0x00f911ef,
0x00eaf10e,
0x0015dbe9,
0x0001faf3,
0x001409fe,
0x000cf300,
0x00edf716,
0x00f3f1f8,
0x00fb1117,
0x000a0700,
0x001605ea,
0x001f1fef,
0x001f19ed,
0x00fc0b03,
0x0017eb15,
0x00fc0401,
0x00141c33,
0x000a0741,
0x00dcf605,
0x0010f40f,
0x000212fe,
0x00e4f105,
0x0015170b,
0x0002eb00,
0x001f08fe,
0x00eb12e9,
0x00e113e3,
0x0002e4e7,
0x00d7f911,
0x0014f81e,
0x00171427,
0x001bf4f1,
0x0003f20e,
0x0000dff5,
0x00eb02ea,
0x00fc0ef6,
0x00e00014,
0x0007fa1e,
0x000d1320,
0x0021f5f8,
0x001ff2e9,
0x00f2fff7,
0x00200cff,
0x00fff627,
0x00e2f2ef,
0x001ce9f6,
0x001a0705,
0x00fb052a,
0x00082c2e,
0x00091bff,
0x00060107,
0x00fa08f3,
0x00dd04ef,
0x0000f008,
0x000e14ed,
0x00ea0d13,
0x00a7dc0d,
0x0008000f,
0x00f1f121,
0x00e705eb,
0x00fc0def,
0x000de70f,
0x00ec110f,
0x00feed23,
0x00f41306,
0x000b06f5,
0x00110403,
0x000aeb18,
0x00ecedf9,
0x00ef0bf2,
0x001309f7,
0x0007f404,
0x00f0010b,
0x00ff171c,
0x000b2121,
0x0017140a,
0x00031c05,
0x00fffaf8,
0x00052afb,
0x00050016,
0x0009f41b,
0x00fc081f,
0x00f1eef3,
0x00f01319,
0x00221df1,
0x0006190f,
0x00e40b09,
0x000c19f5,
0x00ddee03,
0x00010209,
0x00dee9f8,
0x00e7e7f9,
0x00fa0709,
0x00f50502,
0x001707f1,
0x00e504ee,
0x00e2e8ef,
0x000e11f7,
0x00fd0308,
0x000ffae0,
0x0005edfa,
0x000b03f0,
0x0004e119,
0x00e3f8f6,
0x00110b12,
0x0013eff3,
0x000005f3,
0x00fe0414,
0x00fdebe3,
0x000107ed,
0x00fbe501,
0x0014e7ee,
0x000ff8e4,
0x00e208df,
0x00000efd,
0x00fbf7e1,
0x00f8e715,
0x000d1203,
0x00e90312,
0x0008e80d,
0x00f70cee,
0x0003e0e2,
0x001600e3,
0x00f8ecef,
0x00f40404,
0x00fdee11,
0x0009f6ff,
0x00f3ea03,
0x00110dfb,
0x00e910e6,
0x00e9effb,
0x00e8fffb,
0x0011e8f1,
0x0016fbf0,
0x001e16de,
0x001b08e9,
0x0003f00c,
0x000a19f8,
0x00efe407,
0x00ed12dc,
0x001706ec,
0x00eddd0c,
0x00224605,
0x003a1d18,
0x00062cf4,
0x0007f3f6,
0x0012e3f9,
0x0005ebe2,
0x0018fae8,
0x000407fc,
0x00fcfacd,
0x000adcd9,
0x002edbc1,
0x002ce2d6,
0x000f0dfd,
0x00f8f9fc,
0x00e3dce1,
0x0013fc08,
0x00e500ed,
0x00f60bf1,
0x002530fb,
0x00442b22,
0x00fa23ff,
0x00f9e612,
0x00ea01f8,
0x00f71ff3,
0x00291ff0,
0x0026f4fb,
0x002515f7,
0x001406e3,
0x00140fe9,
0x0018e1e5,
0x004a150a,
0x002a6903,
0x00204ab9,
0x0014f1e9,
0x00f9f1f6,
0x00fe1401,
0x002b1610,
0x00faf3f9,
0x00f3dfd2,
0x00f61417,
0x0003eff8,
0x00190af7,
0x000ef419,
0x00e1f8fa,
0x00f2f60c,
0x000ffde7,
0x00f2e6f8,
0x001f1dfa,
0x0027f8f6,
0x00ed1bf9,
0x00072422,
0x000712e6,
0x00fcf30a,
0x00150309,
0x00dbeae9,
0x0015e6fb,
0x0020e905,
0x00ffe81b,
0x00e4f10f,
0x0009f814,
0x00f2faef,
0x00ffeeec,
0x0000110d,
0x00030a13,
0x00f60e08,
0x00f912ff,
0x0001f6de,
0x000ffc18,
0x00f402f4,
0x0001fd16,
0x000c03e8,
0x00fbe20d,
0x00f30df2,
0x00f31a02,
0x0007f814,
0x00fe0dea,
0x00f61617,
0x0016ef1b,
0x00ef05ed,
0x00121bed,
0x005f4e3b,
0x0016f708,
0x00071ceb,
0x00111cfa,
0x00e908f7,
0x001910f1,
0x0021fa17,
0x000fffff,
0x0011ffe3,
0x002409e4,
0x0000011b,
0x000d03e7,
0x001ef800,
0x00ddfb09,
0x000ff216,
0x001af21a,
0x00f6de02,
0x00060515,
0x00083303,
0x0015e3e3,
0x00fe00f7,
0x0020190f,
0x00f4f2ce,
0x001aeee5,
0x0000efe2,
0x00f3e4d2,
0x00e311f0,
0x0027150c,
0x00ef09e5,
0x00eaeae3,
0x00210905,
0x00ec1618,
0x00111808,
0x0000e5f9,
0x00f5eace,
0x001201d7,
0x00092c1e,
0x000f17ed,
0x00eef707,
0x00eff505,
0x00f2fa07,
0x000b15ea,
0x00f712ea,
0x001412f7,
0x001cff0e,
0x00ef1b09,
0x00354018,
0x00191a39,
0x0028363c,
0x0000e5e2,
0x00faf7e9,
0x000b001d,
0x00e2090b,
0x00f8091a,
0x002408eb,
0x00f9f4f8,
0x002107f2,
0x00fefb05,
0x0006f405,
0x00f0fa14,
0x00f0210d,
0x0024200b,
0x00e902f8,
0x001eeef8,
0x00031405,
0x0017120f,
0x000dc1f2,
0x00060c04,
0x00ebf5e7,
0x00fb0e16,
0x000b17fc,
0x00041d11,
0x00e9f01b,
0x00f7f511,
0x00d2cf14,
0x002312e8,
0x00251d1f,
0x0016fa02,
0x00fb0119,
0x00ffea11,
0x00da0c0f,
0x0019f601,
0x000e111b,
0x001f20ea,
0x00d7f8b4,
0x00f5e10b,
0x00ff0516,
0x00fc0b16,
0x00f41cec,
0x00000b14,
0x000bf107,
0x001d19f1,
0x0026fe02,
0x00ec1602,
0x0031281e,
0x0019ece8,
0x00030831,
0x00fff4ff,
0x00151dea,
0x00eefde4,
0x0016ea0d,
0x00ecebfa,
0x0017160f,
0x00f608fc,
0x0010030b,
0x0007f904,
0x00f4fb0c,
0x0006f2ec,
0x0007f1db,
0x00f3f4f7,
0x000709fb,
0x00041001,
0x00080801,
0x0007fcf7,
0x00f90503,
0x000f0c0f,
0x00080cff,
0x00f610fc,
0x0007f902,
0x00fdeefc,
0x00eef5fa,
0x00fe0302,
0x00f1f304,
0x000bfffe,
0x00fdf9f9,
0x0008190a,
0x00001311,
0x00f90007,
0x000efafb,
0x00110407,
0x00020003,
0x00090003,
0x000b0e03,
0x0003040a,
0x0003f508,
0x00100a0d,
0x00fef9f1,
0x00040407,
0x00f8090d,
0x0008f1f3,
0x000ffa0e,
0x0003f6f2,
0x00fb060b,
0x00fd0d10,
0x00031013,
0x00f7ec02,
0x0003fe0f,
0x00faeafb,
0x00fb0a07,
0x00030b0d,
0x00fdf3fc,
0x0003f707,
0x00fbf40b,
0x00f8fa0b,
0x00051512,
0x00f80a0c,
0x00031704,
0x000c0809,
0x00060f08,
0x0003f403,
0x00ff0c09,
0x00fe03ff,
0x00fef607,
0x0007f8f5,
0x00f609f4,
0x00fe00fe,
0x0001fc0b,
0x00050c0c,
0x0003f7f7,
0x0002f309,
0x000e0a09,
0x00f2080b,
0x0003f30a,
0x00f4eff2,
0x00f5fefa,
0x0007fafa,
0x00fe0b08,
0x00f3fdf5,
0x00f9ff13,
0x00f602fd,
0x00e80cf9,
0x000a020e,
0x0000fdf6,
0x00f2010d,
0x00fcf611,
0x000ffffd,
0x00fdf709,
0x00fd0007,
0x00111204,
0x00fd0b0e,
0x00fdf407,
0x000602fb,
0x00f6faff,
0x00fd0cf9,
0x000c0f11,
0x0002f803,
0x00f609f7,
0x00f30ef9,
0x00f60aff,
0x001203ff,
0x00f802fb,
0x000ef80e,
0x00cc0702,
0x00fbf8fe,
0x001af5f6,
0x0000f20e,
0x00f6ecf2,
0x00f2fc05,
0x00f50b05,
0x000af008,
0x000df606,
0x00f90bfa,
0x00f3f706,
0x00f90a0e,
0x00ee0009,
0x00f6fbf9,
0x00f5f80b,
0x000e00f6,
0x00090006,
0x000203fd,
0x00090efe,
0x00171204,
0x000c1106,
0x00ff03f6,
0x000cf808,
0x0008f811,
0x0015080c,
0x00151300,
0x0015fa12,
0x0009f706,
0x00f7f601,
0x00f3f8ef,
0x00f3f1fa,
0x00fdf5fe,
0x00f601f5,
0x00281614,
0x001a1c20,
0x000f2c0b,
0x00f104fa,
0x00080501,
0x000c03fc,
0x00db0bf8,
0x00ed01f2,
0x00fe0cf7,
0x001012f5,
0x000c090d,
0x0006f3f2,
0x00fdfe07,
0x00fa0612,
0x0004130c,
0x0009f10b,
0x00064328,
0x002b4e05,
0x0009f50b,
0x000306ff,
0x000c1001,
0x00fc0104,
0x000cfa01,
0x000e0a0f,
0x000403f5,
0x00000511,
0x000b070f,
0x00fef5ed,
0x00efee07,
0x00ee09fa,
0x00f8fff8,
0x00fd00ff,
0x0008fb09,
0x00f802fc,
0x00f61314,
0x00020a06,
0x00f4fd0a,
0x00090ef3,
0x00f70b0a,
0x00f10602,
0x00fcfdf7,
0x000006f9,
0x00060008,
0x00011012,
0x00060a07,
0x00fbf306,
0x00fcfef1,
0x0001fffb,
0x0001fc0c,
0x00fe1214,
0x00fd0822,
0x00f6f9ff,
0x000909fe,
0x00fafe09,
0x00f70712,
0x0005fbfd,
0x00f41111,
0x00ebeb02,
0x0000f70a,
0x00f0fa02,
0x00f6fffd,
0x0002f911,
0x00f2080c,
0x00f90008,
0x00fbe101,
0x00fee1f5,
0x00fb0e08,
0x00040f0a,
0x000d0d08,
0x00000a0f,
0x00f7050b,
0x000ff405,
0x00f50513,
0x00f90508,
0x0007f30f,
0x00f0020c,
0x00fff3fb,
0x0002f9f8,
0x00f8050b,
0x00f30200,
0x00fefbfd,
0x00021010,
0x000800fa,
0x00fafcf7,
0x000d0b10,
0x00f80e05,
0x00fffb08,
0x00f6030d,
0x00f70c02,
0x00031103,
0x00070c05,
0x00f7f400,
0x00070906,
0x00fcfefe,
0x00060af7,
0x0009fff3,
0x0014fafe,
0x000501e4,
0x0002f5ec,
0x00f9f809,
0x00020ef7,
0x00f7fbf8,
0x00fc0108,
0x000ef5f5,
0x000bf3f4,
0x000d0f0c,
0x00f30610,
0x0009110c,
0x00f8f3fd,
0x0001fcf2,
0x000108f1,
0x00f502fc,
0x00f7fc02,
0x00010d00,
0x0006f5ef,
0x00f10306,
0x00f60005,
0x0006fa0b,
0x0009fe05,
0x00090706,
0x00fa04fc,
0x00faf104,
0x000404ff,
0x0000ef06,
0x00fef608,
0x0001fff1,
0x000aeefa,
0x00f70afb,
0x0006f0f4,
0x00f80e01,
0x00f4f40c,
0x00fdf0f3,
0x00fcf6f1,
0x00fa02f9,
0x000b020a,
0x00030103,
0x0009f9f4,
0x00ef0609,
0x000709fa,
0x00f4fafc,
0x00f90af8,
0x00fd010d,
0x000b060a,
0x00f806f3,
0x0002f9f5,
0x0009f20c,
0x00fbf5f8,
0x00f6f5fe,
0x00f401fd,
0x0002f5fe,
0x00020100,
0x00fff807,
0x00fef80b,
0x000908fb,
0x00f9f5fc,
0x00fef3fe,
0x000a130b,
0x0000fc00,
0x000001ff,
0x00080ec0,
0x0005f5d8,
0x0028f5f2,
0x0008f80b,
0x00f6ef09,
0x00fbf204,
0x00000412,
0x00ec0cf9,
0x00f5f504,
0x000cfa12,
0x00070cfa,
0x0002f7f8,
0x000bf70a,
0x00040c00,
0x00010011,
0x00f7f505,
0x00f6f5fc,
0x00f40208,
0x000c0c12,
0x0017fffd,
0x0009edfc,
0x0002f807,
0x00f00bfb,
0x00fc020b,
0x00040315,
0x00150414,
0x000309fe,
0x001b0a05,
0x0002f30e,
0x00f3ed02,
0x00fc0001,
0x00fc0af1,
0x00000000,
0x0015f5de,
0x00f00f03,
0x00f70a03,
0x00fc0e0d,
0x000506fe,
0x0002ee0d,
0x00f8f7f9,
0x00fafde9,
0x00f6fbe8,
0x00fbf80d,
0x000d0af7,
0x00fbfb0a,
0x00f5f103,
0x0002010a,
0x000800f7,
0x0019fe06,
0x00f7050f,
0x000b2008,
0x000ffc08,
0x00fef807,
0x00f9fe0e,
0x000008fa,
0x000c07fb,
0x0008f6f3,
0x000907fb,
0x0009fb00,
0x00060a03,
0x0013fff4,
0x00fc000a,
0x0002fe02,
0x000f06fd,
0x00120f0b,
0x000df905,
0x0002e6f6,
0x000add09,
0x0015000b,
0x00040605,
0x000601f3,
0x0009f60a,
0x00faf710,
0x000cf2fe,
0x0001fafe,
0x00060500,
0x00fcff0c,
0x0005fd0e,
0x00020302,
0x000dfd0c,
0x0002faf7,
0x000627ff,
0x00132f10,
0x00fd200c,
0x00faf5fa,
0x00040b08,
0x00f60cfa,
0x000c0d00,
0x00140707,
0x001405f8,
0x00fe04f3,
0x000901f5,
0x00fdf90d,
0x00f8fc09,
0x00fa0df7,
0x00f2f705,
0x001beef7,
0x0000f502,
0x0009f6ee,
0x000dfc03,
0x00f504fa,
0x00fd010b,
0x00fefc07,
0x0000f8fd,
0x00fef4f6,
0x00f709f5,
0x0002faf0,
0x000bf4f6,
0x00fe0805,
0x000af6f7,
0x00edfc03,
0x00fe0e08,
0x0003faf5,
0x0006f8f7,
0x00feff00,
0x0001f2ed,
0x00181b14,
0x00f4fd08,
0x00fff104,
0x00f1f603,
0x0005fa0a,
0x0009f7f7,
0x00f5030d,
0x00fa0906,
0x000e0809,
0x00f9fa00,
0x00f402fb,
0x0003030c,
0x0003f7f9,
0x00f8001b,
0x0000101f,
0x00f6ecfd,
0x00f40cfa,
0x000100fb,
0x000201f4,
0x0004fefc,
0x00f4f8f1,
0x0007f803,
0x000001ee,
0x000a04fd,
0x00fff908,
0x0004fc03,
0x00fe10f9,
0x00f709f9,
0x001608f8,
0x0029f4fe,
0x001af209,
0x00f3fa10,
0x0007f909,
0x00fefc00,
0x0003f70b,
0x00fbf906,
0x000a100a,
0x00f80309,
0x000e01f8,
0x00f70cfe,
0x00fa0701,
0x000d0af4,
0x00f6fdf6,
0x0002fc10,
0x000dfb10,
0x00f9fbf7,
0x00fc09f1,
0x0009e3fe,
0x000d0203,
0x000cf3fd,
0x0000070b,
0x00f60bf3,
0x0001040e,
0x00ff000e,
0x00f8f4fb,
0x00fdff05,
0x000908f6,
0x00fdfbfc,
0x00fcfc0a,
0x0001fd0b,
0x00080c08,
0x00090310,
0x00fe1d1a,
0x000d1618,
0x000a010d,
0x000bff0a,
0x00fe0311,
0x000a0601,
0x00fd0410,
0x00020408,
0x0005ff05,
0x00f9fc01,
0x00fdf40e,
0x000d10f9,
0x00ec0502,
0x00eb06eb,
0x0059cbc7,
0x00332cf3,
0x0086017f,
0x0003fafa,
0x001401f6,
0x00080608,
0x000cf810,
0x00eded06,
0x0000f7e9,
0x00fc0f04,
0x0002030f,
0x0001ecfd,
0x00f9eff6,
0x0003fdf0,
0x000a0af0,
0x00f301fd,
0x00080606,
0x00fb02ef,
0x00f40100,
0x00090a06,
0x0003fcfa,
0x000b00ff,
0x00110806,
0x00130b00,
0x00041ceb,
0x00060404,
0x00050300,
0x00fd0f03,
0x00fa0ce6,
0x000e14f7,
0x00f0f501,
0x00fcf2f2,
0x0006f4fa,
0x00e016d6,
0x00c22332,
0x00bf1724,
0x0007fd07,
0x0009f20b,
0x000dfc04,
0x00f0f2f1,
0x00edf5fc,
0x0003efe9,
0x00170b20,
0x00f5f0fd,
0x00f8f705,
0x00f4f90e,
0x00090d09,
0x00040bfd,
0x00fafd0a,
0x0000fc06,
0x00040413,
0x000a0c05,
0x000afe00,
0x00f6fa0b,
0x000afd05,
0x000d0b0f,
0x00fafc11,
0x000df809,
0x00ff10fc,
0x000205f4,
0x00f80bfa,
0x000d110a,
0x000004fa,
0x00fb0505,
0x0005fe08,
0x00fe11fa,
0x00fcf407,
0x00e9fd0d,
0x00fdfc03,
0x00f40e04,
0x00f1f30a,
0x00f10e0c,
0x000df8f8,
0x00f2f50b,
0x0003f7ff,
0x00040208,
0x00100c0e,
0x00fc11fb,
0x00fbfaf9,
0x00fa06f7,
0x00f4fef9,
0x000b0d00,
0x000fff07,
0x0002040f,
0x000ef3fa,
0x000f0c01,
0x000e0bfc,
0x0011100a,
0x0002120c,
0x0000f7fb,
0x000af707,
0x00fd0900,
0x00fe0c01,
0x000801fa,
0x00060402,
0x000c0008,
0x00130309,
0x00041915,
0x002016fc,
0x000efb0c,
0x00fd0d05,
0x00100006,
0x0010f404,
0x000bfa0b,
0x00050cf7,
0x000ffaf6,
0x00060d01,
0x00090905,
0x000dfe00,
0x000d030f,
0x0004f8fc,
0x00fd04fd,
0x00110302,
0x0000fa0d,
0x00f6faf9,
0x0008fcff,
0x0000f109,
0x00f8f403,
0x0003070b,
0x00f7f10b,
0x00fd0bfa,
0x00f7eeff,
0x000a09ff,
0x00fe0203,
0x000dfafd,
0x0005f80d,
0x0009fc0f,
0x000df60e,
0x000efff5,
0x00f60915,
0x000b1119,
0x000f1e10,
0x00f5f5fe,
0x00050006,
0x000e0cf5,
0x0006fc02,
0x00fd0a06,
0x000f0400,
0x000e08f4,
0x00110b05,
0x0004fdf9,
0x000b0a04,
0x00fdff07,
0x00fc0104,
0x00eddefc,
0x00f2d9b5,
0x00dae0ed,
0x00f8ec0e,
0x00ffeef2,
0x00fa0d00,
0x00f2ef06,
0x00ef0115,
0x00fef8fe,
0x00f3f50f,
0x00010606,
0x000e000e,
0x00dbfd0f,
0x00d1ea1d,
0x00fefc01,
0x0000f90a,
0x00f6f505,
0x00051408,
0x00f9140b,
0x00111efb,
0x00e80303,
0x00fd1206,
0x00150805,
0x000a0008,
0x000e06fd,
0x00030a10,
0x000a0a0f,
0x00f30804,
0x0005e6fd,
0x000b04f4,
0x00020df6,
0x00000bf8,
0x0003fbfc,
0x0005e411,
0x00e8dd19,
0x001df716,
0x00f9f2f2,
0x000c0501,
0x000d0d06,
0x001610f8,
0x00161307,
0x00f40b17,
0x00ff1507,
0x00fd02f4,
0x00fe0d01,
0x00fe0d06,
0x00fef508,
0x00f3f5ff,
0x00161310,
0x00dff31c,
0x00e4dae5,
0x00080408,
0x0006fcf5,
0x00faf80d,
0x00f308fd,
0x00ee04fe,
0x00f20bff,
0x0003050e,
0x0007ffff,
0x00fd0006,
0x00ff030f,
0x00f1fd05,
0x00e5e9f8,
0x000b140a,
0x00f707f4,
0x00fc04f4,
0x00fd19ff,
0x00100ded,
0x001806f3,
0x00ff070f,
0x00fdfdfa,
0x000af307,
0x00000efc,
0x000d130b,
0x000e0b0c,
0x00fc0cfd,
0x000af7fa,
0x00f6f0fa,
0x00fef50a,
0x000a09f1,
0x0002fbf5,
0x00092a16,
0x00171b23,
0x00d0ccd3,
0x0011f5fa,
0x00030807,
0x0009f7fc,
0x0002020a,
0x0000100c,
0x000cfc05,
0x00fd0a03,
0x000f05f4,
0x000bfd00,
0x00001008,
0x00f80fff,
0x00ebf1f2,
0x003c3017,
0x00090b48,
0x00c7d9f9,
0x000af810,
0x00f905f5,
0x0004f9fb,
0x000f0e05,
0x000405fb,
0x00e6f5fb,
0x00ff03fd,
0x00060cf6,
0x00fcf106,
0x00010106,
0x00f6050d,
0x00f2ebf2,
0x00050f0c,
0x000704f8,
0x0004e5fe,
0x000900f5,
0x000b0c05,
0x0008060b,
0x00091101,
0x000b0301,
0x001105f4,
0x00f80e07,
0x00010908,
0x000e0df4,
0x0004fa01,
0x00010905,
0x00ecf3ef,
0x0000f5f3,
0x000109f4,
0x00fd0700,
0x00050617,
0x00171b17,
0x00f8eef0,
0x00fc0601,
0x00f3fd02,
0x00e6f6f0,
0x00daffee,
0x00ed08f5,
0x00fcfbe5,
0x00130ef9,
0x00140908,
0x00fe09fd,
0x00363616,
0x000437d2,
0x00d7f20b,
0x0000ffc3,
0x00de13db,
0x0021f202,
0x00e24228,
0x00061071,
0x00fb3a15,
0x00323a08,
0x0007e8cf,
0x00e5fad9,
0x001c19bc,
0x003117f7,
0x004236e3,
0x00d0f1e9,
0x00def9e1,
0x002b2024,
0x00ccc718,
0x00312642,
0x0028fbf4,
0x0022c019,
0x00c8d4e2,
0x0006cd31,
0x001e1c0b,
0x00ad0cc6,
0x0016da0a,
0x001dbdec,
0x00d7d1d5,
0x00f028c2,
0x0027ebab,
0x001b51bc,
0x000f0be8,
0x002de8c4,
0x00def8bf,
0x00befa04,
0x00ddd413,
0x00bbe0fc,
0x00e8d4c1,
0x00f5210f,
0x00a4706b,
0x0001e715,
0x00453160,
0x00c6e4e3,
0x000e02d9,
0x00bddcf6,
0x0081d8bb,
0x00d6f8f8
};